111101101100
000001000011
000001010000
000010010010
000000111010
000001110010
000001101010
111111111010
000000001001
000010100100
111111100101
000001111011
000000010011
000000111011
000001001011
111111110101
000010100001
000000101100
000010011100
000011010111
000000000010
111110101000
000001111111
000000001101
000110100110
000011000100
000010001001
000000100010
000010001100
000011000001
000001001110
000011000011
000001010011
111101001101
000011001000
000000011001
000001000101
000000010101
000000100110
000000101100
111101101010
000011001001
000100011110
000110001101
000010000110
000001001100
000000001101
000001111000
000011100110
111101111111
000010110001
111111101100
111110111111
111110100100
111100111000
000111110000
000000000110
000000001011
000000000100
111110011110
000000010100
111110110111
000001110000
000000100000
000000101000
000000100111
111111010000
111110000000
111110110111
000000100110
111110111101
111110111100
111111000011
111110100111
111110100001
111110011111
111110001010
111110101011
111111000111
000000101010
000000101100
000001000000
111111010001
111110101101
111011110000
111101111101
111101101011
000001100111
000001110101
000000100011
000000010010
111100111010
111110011101
000001100001
000000011010
000000001111
000000000101
000001111101
