111100101001
111101011000
000001011010
000001101000
000000101110
111101110101
111111101111
111101100010
000000011001
111110000111
000001110110
000001110110
111110101001
111110001100
111111101110
111111010000
000000010001
111110011100
111101011001
000000011101
111111001000
000001101010
111110111111
111111101000
111000100000
111100011010
000000111101
111111111010
000000100110
111001011101
111101001101
000010010011
000000110111
111110101111
111100000110
111110110101
111011000000
111101101110
000100101011
111111111001
000001010111
111001101111
110111100001
110111110000
000000111100
000001000101
000001000001
000000011111
110000110110
111111010100
111101010011
111100110010
111100010001
111101010000
111010001110
110101011011
111110010100
000000000010
111111001010
000000010011
000000010000
000001001001
000011100010
000000010110
000000111111
000001101101
111111001110
000011001110
000010111001
000011000111
000000111001
000010100111
111111010110
111010000010
000010101110
000001000111
000000010001
000011000001
000001111010
000000100101
111100101001
000000111100
000001101101
000001101011
000011010001
000100100111
000011001001
111100010011
111011110111
111110010101
111011101011
000000010100
111111011001
111110000001
111110001101
111000000000
111011011110
111100110101
