000110110011
111110010000
111100010011
111011011111
111101011000
111110100000
111111001101
000000110110
111110000000
111100110100
111011001100
111011111000
111111110110
000000110011
111101010001
000100110110
111011111111
000000011011
000000001101
111010001011
111111111111
000100101000
000010010101
000000100110
111111001000
111100101001
111001011001
000001011100
110110110001
000001110110
111111100100
110111110001
111010011011
000101111000
111111111101
000001010011
000010100010
000001011100
111001101101
000001000110
000001011111
111110101010
111111111110
111110011010
111000101010
111100000000
111010000101
111101010001
000010011011
000100110001
000000110100
000011000001
000011101000
000100111111
001001000110
111110000110
000000011001
000001001010
000010100111
000001111111
000000000110
111100110011
110100101110
111101001000
111111111100
111100111000
000001011001
111100111100
111000010001
110101001001
000000010011
111011000111
000000100101
000101001010
111110011111
000101110100
000001110011
110111100010
111101000001
111110110000
000010011100
111101000001
111001000100
111111111000
000000011000
111111010101
000000000000
000001101110
000001000010
000001101111
000011010111
000011001001
000001110101
111111111011
000000011101
000100111110
000011000010
111101110101
